85
80
78
77
7b
8a
7a
84
7e
88
7d
77
80
82
89
7b
81
7f
85
80
7e
79
78
86
7c
81
7b
8a
77
7b
7b
82
81
7e
83
84
87
82
77
77
7f
85
7b
7c
7e
80
7e
80
7f
7f
80
80
82
7e
87
7d
7e
7d
82
82
7b
80
81
88
7d
7b
7c
81
86
7d
81
83
81
81
80
7e
7d
7f
7d
7f
82
81
7b
7d
81
7b
7e
7f
7d
83
86
83
79
80
7a
7d
81
7c
83
7d
7a
7d
79
7f
83
82
7b
7c
80
7b
7b
78
7b
7f
7c
7f
80
85
7f
7b
81
81
85
7f
7c
80
7d
82
79
7e
7d
85
7f
7b
79
7f
7f
7e
7c
82
84
7d
7e
7c
80
81
7c
7f
7d
82
84
7b
80
81
84
82
7d
83
80
7d
81
82
84
83
7d
7a
81
84
84
81
84
81
80
7b
7b
80
7f
7a
7e
82
81
7b
77
7c
7f
88
82
81
7e
7e
7c
79
7f
7e
84
83
7e
7b
7d
7c
79
77
7f
87
7e
80
80
84
84
7d
7e
7f
87
7c
80
82
83
7a
7b
7b
83
80
7c
7d
84
80
80
80
79
7b
85
7e
86
7d
7e
7a
7b
7f
7e
83
7c
7b
80
82
78
78
78
7b
7f
82
86
7b
89
81
7e
77
7e
85
7c
7d
84
89
7d
77
7d
84
84
7b
80
7b
8a
7f
79
79
7e
85
7e
89
84
8a
79
75
76
83
89
79
81
7e
87
7e
76
7e
82
86
7f
82
81
8a
81
7e
7d
81
83
7f
84
81
87
7f
7a
7b
79
83
7d
85
83
88
81
79
7c
79
83
80
85
80
87
7a
7f
7f
81
82
80
84
80
82
81
79
7a
7f
7e
82
7f
7f
86
7b
7d
7b
83
81
7c
7f
7a
7f
83
81
7b
7f
88
80
82
80
84
7e
7c
80
7e
85
84
82
7b
7f
81
7a
80
7f
7e
7c
82
84
85
84
82
7a
7c
84
81
83
7d
7c
79
7d
79
80
81
83
7b
82
81
81
7d
7f
7b
81
83
7e
7e
80
81
7a
81
82
7e
7b
81
7c
7e
82
7f
81
80
7d
82
80
83
82
81
82
7a
7e
82
81
7f
78
83
7a
7c
7a
7a
86
84
7c
84
83
7c
7e
79
7e
82
7e
82
80
80
7d
82
7e
7d
7f
80
81
7a
85
7b
7c
7e
7a
85
80
7f
82
83
81
7a
7c
82
84
7b
7b
7b
7f
81
83
7d
7e
7f
82
83
7b
84
7e
83
82
7e
83
7b
7c
7e
7f
80
7c
82
81
80
7e
83
84
85
7e
7c
7d
81
82
82
85
7b
81
85
7c
7d
7d
84
7b
7d
84
81
84
7c
80
82
86
82
7d
84
82
79
7a
80
7d
80
83
80
7e
87
83
7d
79
82
7f
81
7f
79
82
80
7c
76
7f
80
83
7e
7a
83
7d
76
77
7c
81
7d
85
84
89
7b
78
7a
83
89
80
84
7b
84
7f
7f
7a
7e
81
7e
7c
7b
81
7d
80
79
78
80
81
82
83
88
78
7a
7f
80
7f
7c
7b
80
80
81
79
81
80
85
82
81
82
81
7c
7a
78
7a
84
82
83
79
82
85
78
7a
83
83
83
7d
7e
7e
7e
81
7a
7c
83
7b
82
81
7d
82
7d
7b
83
82
81
7e
7c
7b
7c
80
82
7e
7d
82
85
80
85
7d
81
82
7d
81
80
7a
79
82
83
81
7e
81
7c
80
80
82
7d
78
80
7d
7a
85
87
80
7e
7d
82
81
7e
82
84
83
82
7c
82
83
82
7f
7b
7f
81
80
7b
7a
7b
7e
83
7f
7e
7a
80
7f
81
7e
79
7e
7b
83
85
85
80
83
7c
7c
82
7b
82
84
83
83
7b
84
81
7a
80
7d
7f
7a
7b
84
7c
81
7d
7b
7e
7c
81
7f
7a
84
7e
80
7c
7f
7c
7f
81
7d
7f
7f
83
79
87
82
81
7b
84
7f
7a
7a
7a
7f
84
79
7a
7b
83
84
7a
81
81
84
7f
7e
84
7b
7e
7b
82
80
85
7d
7b
81
82
7b
7e
80
81
82
7e
7b
7f
80
7e
80
80
85
7f
7b
7e
82
83
81
7b
7e
80
7a
82
7c
7f
7f
80
79
7f
82
7d
7d
7c
83
7d
7d
80
81
86
7b
82
7f
87
7d
7d
80
7d
80
83
82
82
84
79
80
7f
7a
83
7d
7f
7d
81
78
7b
7b
85
7f
7c
82
78
80
81
7f
7c
7d
7f
79
81
7e
88
81
79
7a
7d
88
7d
83
7b
85
7d
7d
82
80
83
81
7f
7e
7e
80
81
7a
82
7e
7a
80
7e
80
80
7c
7a
7f
81
7d
81
79
81
7c
7a
7b
7c
80
83
82
80
83
86
82
7b
80
7e
7f
80
7b
83
82
81
82
80
7d
7d
7b
7e
7d
81
7e
7e
7f
84
82
81
80
7c
7f
79
7a
84
7c
84
80
7c
7f
83
7e
7c
82
80
7f
79
82
7e
84
83
85
7b
80
7c
83
7e
7e
84
80
7e
7f
82
82
80
7e
81
7f
7d
7f
7b
80
7d
82
7f
7a
7e
82
82
7f
7e
7c
80
7c
7f
7c
83
7a
81
84
7c
82
81
83
7e
81
83
7e
81
84
7f
81
81
7f
7b
83
7b
7d
85
82
7e
7a
7f
79
82
81
7f
85
84
7d
79
84
7b
82
7d
7f
86
80
7f
7d
7e
79
7c
7f
82
7b
83
80
7c
7b
7c
81
7a
80
7d
7e
7d
81
82
7e
7d
7d
7d
7b
7d
7c
83
7f
7c
7c
7f
82
84
81
7f
82
7d
82
7e
81
7e
7d
7e
79
7b
84
7c
7b
83
7e
80
82
7e
84
79
7d
81
7f
82
80
7c
79
7d
7c
80
7d
7b
7d
82
84
7a
83
7c
7c
80
7a
81
84
82
81
80
7a
7f
81
7d
83
7c
7d
80
86
7d
7b
79
7d
87
7d
7d
7c
8a
7a
7a
7a
7f
86
7a
7e
80
86
7c
80
7c
80
82
7d
7b
81
7f
7c
7e
7f
82
83
81
84
81
85
80
7d
7d
7b
81
79
87
80
7e
7d
83
80
84
81
80
7d
83
81
7a
80
7d
83
81
81
7f
79
7a
7d
79
82
83
7b
7d
7f
80
7d
80
83
7f
7f
7f
84
7d
7f
7f
83
7d
7a
80
85
7c
79
81
80
82
82
7e
7f
7a
81
84
7d
7a
7c
80
7f
7d
81
83
7c
7c
80
84
82
85
7b
82
7b
7e
7b
83
7d
7c
7c
7b
7d
85
83
82
7c
80
80
7c
7b
7c
84
78
83
81
7e
84
7b
7c
7f
7f
7a
82
7f
81
7a
82
7b
7e
7a
7c
7c
7f
7e
7c
83
7b
7f
7f
7c
7e
82
85
7b
81
7e
7d
83
7f
7b
79
7e
82
82
83
7f
80
7c
7e
7b
7c
83
7d
83
85
7c
7b
80
80
7f
83
7d
83
84
7f
7f
80
7c
85
82
84
80
82
7f
7b
80
84
85
81
81
7d
7e
7d
7b
79
78
81
7b
7d
81
84
7e
7c
7d
79
7c
7f
81
83
7f
7d
7b
77
7e
7c
83
80
7e
7e
85
7d
7f
7a
80
7f
83
80
82
84
7c
7f
85
82
80
82
79
81
7e
83
7d
7c
80
7d
85
83
80
83
7d
7e
85
82
7d
7d
7a
81
7b
81
81
7c
7a
82
78
81
7f
7d
7f
82
85
7f
80
7c
84
82
7c
7f
7a
87
7b
81
80
7f
7f
7b
84
79
85
7e
7d
82
7f
80
7a
83
81
7c
7d
7d
7d
7b
84
83
80
7e
7c
82
7d
80
7f
7c
7d
7c
82
83
7d
7a
7e
83
81
81
7c
7d
79
7c
7c
7f
83
7d
83
7f
80
78
81
79
7d
7a
80
7f
82
7f
7d
81
83
85
7b
7b
7c
82
81
80
7e
7e
7c
7d
7e
83
83
7c
7e
7d
80
79
7a
84
7a
82
7f
82
81
7b
7f
7f
7b
80
79
7d
78
82
86
83
7e
7f
81
80
80
81
7d
7c
7c
7f
85
83
7c
7f
82
82
81
84
7c
85
7e
80
84
79
7a
7c
7c
83
7c
82
7f
85
81
80
83
7d
7e
81
7c
81
7e
7b
7f
80
82
7e
80
7b
81
80
83
81
83
7d
7e
7e
82
80
80
7f
80
82
82
7b
7f
7d
80
82
82
80
7f
7d
80
7d
7f
80
7c
80
80
82
80
80
7e
7b
80
82
80
7f
7f
82
79
78
82
82
7f
7c
84
80
83
78
84
7c
82
7b
7e
7e
7c
7d
7b
7f
84
81
7b
7e
83
82
7f
7c
84
82
7d
7c
7c
7e
82
7d
7a
81
82
7d
7c
84
7d
7c
7b
7c
7c
7d
7e
82
7e
80
82
7f
7a
82
7d
7b
7f
7f
80
7a
7c
7c
81
7e
81
7a
83
7c
7e
84
79
7f
80
83
7a
7f
82
80
7a
83
7e
7a
80
7a
7f
77
7c
7b
7c
7b
84
84
7f
82
76
7e
83
82
86
7d
7c
7f
87
7f
81
81
7e
83
7c
7d
7d
7f
7a
79
80
7f
85
7c
85
7c
7c
7e
81
7d
80
83
83
7e
7c
81
7c
7c
81
81
81
7a
80
84
7f
82
7e
7b
7f
80
7d
7e
7e
7e
7c
7d
80
84
81
83
81
7e
77
81
83
85
7d
83
7f
84
7f
79
7f
7e
85
7f
7c
7d
83
7f
80
7b
7c
80
82
7c
81
82
84
7b
81
7b
81
80
83
7f
7c
81
7e
80
7b
7e
78
82
81
82
84
7a
82
82
7d
7c
7b
81
7a
7e
82
7e
80
7f
7d
7f
7e
7b
83
79
7e
7e
7c
83
7e
83
7f
7c
81
7e
7b
81
7d
7c
7c
7f
7e
81
82
83
86
83
7e
83
82
84
7d
80
7e
7c
7d
79
82
7c
84
7e
85
80
7e
7c
7f
80
7b
82
7f
7e
7c
7f
7e
81
81
80
7c
7f
83
7b
82
79
83
7d
7c
7c
7b
7c
7e
84
81
7a
80
78
85
81
79
81
81
7d
83
7f
7c
85
7f
84
82
7f
7e
7b
82
83
7f
7c
80
7c
7c
78
7b
7f
7e
7f
79
84
85
7e
81
79
85
7b
7f
7e
82
7d
83
7f
7d
7e
7c
7f
82
84
84
7f
7d
7c
85
83
83
7c
7e
84
7d
7e
7c
7c
7e
7b
80
82
7d
83
7f
7b
82
7d
81
82
83
7c
80
7e
82
80
84
7b
7e
7c
81
82
81
7c
80
83
7e
84
7f
7a
80
7d
82
7e
7d
7e
81
81
82
81
81
81
85
80
81
82
7d
7d
80
7c
7c
7a
7f
7f
84
7c
81
80
7e
83
82
7e
80
7f
84
80
7d
7f
7e
81
7e
7b
7f
7f
7d
7b
80
7a
7e
7a
80
77
82
7d
81
79
7b
83
7d
80
81
82
7f
7d
80
80
83
7c
7c
7c
81
7c
84
81
7e
82
7a
80
80
7c
86
81
81
84
7c
82
7c
79
81
7f
85
77
7a
80
7e
83
7b
82
7d
80
7e
84
7d
81
81
7f
7e
7d
85
7c
83
7d
77
7a
7d
7e
80
83
80
7d
81
81
81
79
82
7f
86
78
80
7c
7f
7c
7e
7d
7f
82
81
7d
7d
81
7f
7a
82
79
7d
7b
7f
80
80
7d
7d
83
83
7f
7d
7f
81
7f
7b
7e
81
7d
81
7c
80
7a
7e
7c
78
81
7c
7c
80
81
7d
7f
7a
7a
7b
7b
7e
7d
81
7b
7c
7a
7a
7d
82
81
79
7d
84
7a
7c
79
82
7e
7f
7c
7b
83
82
80
7a
80
83
7f
80
7e
7f
7f
83
7b
84
85
86
7e
7c
7d
7d
7b
7a
80
83
82
7e
7a
7c
80
7f
80
7f
81
7d
7c
7f
82
80
7a
7f
82
7f
83
7c
7c
7c
7f
82
7b
7e
7c
84
80
7c
83
7f
83
7d
80
84
85
80
82
85
7e
7d
7e
82
7b
7c
7a
80
7f
80
7d
84
7c
83
7b
81
7b
7c
7f
7a
88
81
7f
80
7f
7b
7a
83
7e
7f
7b
7e
81
7a
7d
7c
84
7e
7e
7d
7b
80
79
7a
7b
84
79
80
81
7e
83
7b
7e
7b
83
80
7e
80
83
81
80
7e
81
7f
79
80
7e
80
7b
7b
81
82
84
7c
80
83
7a
83
7d
7e
83
7a
7d
7c
7e
83
84
7d
7d
82
7f
7d
7c
80
7f
83
7e
79
7f
81
7e
78
83
7c
83
7d
7b
7e
7b
79
7e
82
85
81
79
7b
7c
7e
80
78
83
81
7e
80
7d
86
80
7e
79
7e
7f
7d
7a
7a
84
77
7d
82
86
84
80
78
84
83
81
84
7c
81
80
86
7e
82
81
7e
79
7c
7d
7f
86
80
82
84
7a
7b
80
80
82
87
80
7b
84
7d
7f
80
7e
81
7f
83
80
7e
83
7c
79
81
7a
86
7d
7c
7a
7c
7c
81
86
83
7d
7b
7c
7e
7a
81
7f
85
7b
81
7a
77
7f
82
7e
7a
82
82
7f
80
81
81
7b
7b
7e
7f
7b
81
7c
80
7a
84
82
81
80
7d
82
7b
77
80
7c
82
7f
81
84
86
7b
77
83
82
7b
7e
82
83
85
7b
80
86
85
7e
80
83
84
7d
81
7e
80
83
7a
7e
80
84
86
82
82
7e
7d
7e
82
7b
81
7b
7a
7e
80
7f
80
7a
7c
7c
83
81
7d
81
7b
79
7f
83
84
81
7b
84
80
81
7d
7d
80
82
7f
7c
84
83
81
80
83
81
79
7f
7a
7d
7e
83
7e
83
78
80
7f
82
7e
7c
7e
7f
7f
7b
82
85
79
7b
7c
80
80
80
85
7f
80
7f
7a
7d
7e
7f
7b
7e
83
80
79
7d
7b
7f
7b
7a
7e
7f
85
81
7e
80
7a
81
79
81
7c
7e
7a
7f
83
7e
7b
76
7e
7b
7d
82
7c
7a
80
7e
76
7f
7e
7f
7b
7b
7a
7d
84
7c
7d
80
7f
7a
7b
7c
79
7c
7e
86
84
85
80
81
83
80
83
7f
83
7e
82
82
7a
7d
7f
82
7b
7c
7b
7f
7f
80
7b
7f
7d
7e
7e
7c
83
7d
7e
81
7d
7c
76
83
7b
84
7c
82
7b
81
80
7c
7f
80
85
7f
82
7d
80
84
81
85
7c
7f
81
80
80
7f
7c
82
7d
7b
83
7d
7b
80
81
80
79
81
83
7e
7b
76
81
7d
7e
7d
7e
7a
84
84
81
7e
7a
81
7a
85
7c
7e
78
7f
7e
81
80
81
83
7e
7f
7b
82
7c
7b
85
81
86
81
82
81
7a
7d
7d
83
7d
7d
84
88
80
77
7d
83
82
7b
7f
81
7c
83
80
82
7c
7a
7a
7c
81
7f
80
7e
7d
7d
7d
7b
7e
80
84
7c
79
83
7b
83
78
7d
7f
7c
7f
7c
7e
7f
7b
7b
81
7c
86
7a
7c
80
80
80
7f
81
7e
85
81
83
81
7d
80
7c
84
7f
7e
79
7c
79
7b
7a
7d
7e
85
7d
79
7e
7c
7d
7c
82
82
80
7c
7a
81
81
87
7a
7b
7a
7b
7d
7c
81
7d
7b
79
7a
7e
7e
86
81
80
80
80
7e
81
7f
7d
86
80
7f
7b
7f
83
82
7f
7e
7c
81
81
82
7c
7d
77
7c
7e
7d
7f
7f
81
7b
81
80
83
83
81
81
7c
7c
81
83
7f
80
7f
80
7b
7e
82
84
7f
7e
7f
80
7f
79
78
7e
7c
80
80
80
7d
86
7e
81
82
82
81
79
84
7e
80
79
78
7f
81
7f
77
80
82
7f
7b
7e
7e
7d
80
7c
7d
80
80
7a
78
82
7c
7c
7b
80
7d
7e
7b
7b
84
83
85
7b
7e
7a
81
81
7c
7b
80
80
7e
84
7d
7e
7c
7a
7b
7a
84
7d
7e
7f
7d
7c
7c
7f
7c
83
7c
83
82
85
80
7c
7a
7e
82
77
82
81
87
7c
77
82
7e
79
7c
80
83
80
7a
7f
80
83
7d
82
7b
7d
85
7f
7d
7f
80
80
7d
83
85
82
7e
79
7f
7d
7d
78
7b
81
86
7c
7e
7d
77
7d
81
80
82
87
81
80
7c
81
7d
80
86
85
85
7b
7d
7f
7a
81
7c
7f
80
80
82
7e
7c
85
7a
7d
7b
7d
86
82
79
85
82
84
7d
7c
85
86
7e
82
7c
80
7d
7d
83
7d
7f
81
7b
7d
83
7b
80
7b
84
7c
81
7e
79
7c
79
7b
7d
82
86
80
7d
7a
84
7b
7f
7a
83
81
83
7b
84
7d
81
7e
7d
7c
7e
7a
78
80
81
81
82
84
85
84
7c
7c
81
81
7f
81
80
81
86
78
7e
7d
84
84
78
7b
7c
82
7b
79
84
7f
7d
7c
7e
86
83
7a
80
82
82
84
7b
83
85
86
7e
80
7a
82
7a
80
87
84
83
82
7b
7e
7d
83
77
84
7c
7f
7e
81
83
82
83
7b
7b
83
88
7f
7a
80
82
81
7e
82
7e
86
7e
7c
84
80
83
78
81
7e
88
81
78
80
82
7f
7b
81
80
89
7e
7a
7e
7d
82
79
84
84
81
7d
79
80
7f
81
82
7e
82
84
7c
7f
81
83
86
78
81
7e
87
7c
76
7d
7c
82
78
82
80
7e
82
7a
84
7e
7d
7f
82
7f
83
83
80
80
81
80
81
7c
84
84
83
7a
7a
7d
86
77
7d
7a
7e
7c
79
7d
7a
7f
81
84
84
7d
7b
7e
81
7d
7e
79
86
7c
85
7a
78
7b
84
7f
7c
84
82
7e
7d
7d
7d
82
85
7a
83
7e
86
7a
78
80
7c
80
7b
85
81
86
83
81
81
80
83
7d
7e
7c
83
7c
79
83
7d
7b
7d
7d
80
81
79
78
7d
7b
81
7d
80
7b
89
7a
7c
7f
83
83
7d
81
85
80
7c
7c
7d
82
82
7e
80
81
82
7f
7e
7a
80
84
7e
7d
84
84
7c
80
7e
7f
81
80
80
7e
7b
82
80
81
80
81
7f
7c
85
84
7e
81
80
81
7e
7e
80
7c
84
83
7d
7c
7f
7d
7c
81
85
85
81
79
81
85
7c
7c
7b
86
85
7d
7c
82
81
7a
7c
7e
82
86
7c
79
80
80
84
7a
7f
7f
85
7f
7f
83
81
83
80
7c
82
85
7c
7a
80
86
82
7f
7d
82
7f
7f
7e
79
7d
7a
75
86
80
83
82
7b
80
7d
83
7e
81
85
86
7d
7d
7d
85
7a
7a
81
83
84
81
82
83
7d
82
78
7c
7d
88
7a
77
7a
7a
7d
7a
86
80
84
80
7b
7f
80
82
82
7b
81
82
78
77
82
83
7e
7a
80
7d
81
80
78
80
79
81
7e
81
81
84
80
7e
7d
7b
7f
81
85
84
88
7a
79
81
7e
7f
7d
7e
7e
81
7f
7f
79
7c
86
80
82
83
80
79
7a
7d
7f
81
7d
7c
7d
7e
80
7e
83
78
86
7a
83
82
85
7e
7b
80
80
85
7d
7e
85
84
82
7c
82
7d
7e
7a
82
7c
85
7e
7b
7c
7b
7e
7a
7c
81
85
7c
7e
7e
80
82
7b
7d
87
84
7f
79
7d
7e
80
78
7d
83
86
80
79
80
7b
7d
78
84
86
86
80
7a
7d
7c
7d
80
84
7d
80
83
76
7d
83
80
7d
80
82
89
79
80
7a
7b
85
7a
7c
7c
88
7f
78
81
82
80
80
7c
80
7e
7f
78
7e
82
7e
80
83
86
86
81
78
7f
7d
85
79
7c
87
88
7b
7d
7a
7b
7e
84
7d
85
81
7f
80
81
84
7c
84
78
85
80
7b
82
7b
83
80
7b
7a
85
85
82
82
7f
84
7b
7a
7b
7e
85
7f
79
83
80
84
7f
83
84
89
7d
7b
7e
7c
80
80
83
85
86
7b
79
78
84
84
7a
82
81
7f
79
76
81
7e
7f
7d
7f
82
80
80
79
7a
7d
7d
7b
7f
85
86
82
7a
81
7f
7e
79
82
81
81
7a
7e
7d
80
80
7f
83
7e
80
7d
7e
7e
7c
83
76
80
7f
89
7e
81
81
80
7d
76
80
7e
84
81
7a
7d
7a
87
77
7b
81
87
7e
79
82
80
80
7e
84
83
80
84
78
80
82
83
80
84
80
85
78
79
80
7a
84
81
81
7e
80
78
79
7b
7c
84
7c
7c
7e
81
80
78
7c
79
7e
7b
85
86
7e
7f
78
83
7a
81
7a
80
82
82
7e
7a
83
81
85
79
83
82
84
80
7f
7f
84
85
7e
7d
82
85
7c
80
7f
7a
7e
7a
82
7e
80
7e
80
7b
7c
7c
7f
84
86
83
7e
80
82
7f
82
78
7c
7f
85
7b
7c
7f
81
84
7a
82
85
88
79
79
84
80
7b
7a
7f
86
81
7b
7c
7c
80
7e
7d
7f
80
83
7a
7f
82
84
7d
7b
81
84
7f
7d
7f
83
83
83
78
84
81
7e
82
7e
7d
81
81
7f
83
82
88
82
7d
7e
7c
7e
7a
7d
84
84
81
78
81
81
86
83
7a
7f
84
79
78
7a
85
7d
7d
7e
7f
85
77
7e
83
83
7f
79
7d
81
82
81
79
7a
7f
7e
7b
7c
7e
84
81
80
7b
7c
82
7d
7e
7f
86
80
7a
7b
84
84
80
7d
87
82
82
79
80
79
85
7b
81
7e
82
7d
7c
80
7b
7b
80
80
86
82
80
7f
82
82
82
7c
7d
82
82
7d
79
83
82
83
78
82
82
86
7a
78
7e
82
82
81
81
80
89
7e
7a
7a
7e
83
79
7a
7d
85
7f
7f
7d
7f
80
7a
81
84
80
7a
76
7b
83
7b
7d
83
80
80
79
82
7c
7c
86
7b
83
85
7f
79
7c
83
81
80
78
7f
7f
80
7f
7d
7c
7c
7f
7d
81
80
88
7b
7e
7c
76
7d
78
83
83
86
81
7c
80
79
86
79
7f
7f
81
79
78
7b
75
87
7d
84
80
86
7d
80
83
7c
7d
7b
80
7e
84
7b
7c
77
7c
83
7e
84
82
83
83
76
7c
7b
7e
7a
80
7f
7d
7b
7d
7d
7d
7e
78
84
83
88
80
7d
7b
7c
81
7a
85
7e
89
82
7d
83
7b
83
77
83
7c
82
7f
7d
79
82
81
7e
80
83
88
81
77
82
7e
85
80
81
84
81
7c
7a
80
7e
82
7b
83
82
82
81
78
7a
7b
85
7a
80
7e
81
7a
80
82
79
81
81
81
88
80
7d
7e
7b
82
7f
78
79
81
85
7d
7b
7e
7b
80
7f
80
7d
81
7c
7b
7a
7e
80
7e
7b
7f
80
79
7e
81
82
79
7d
7c
86
82
81
7d
80
81
80
79
80
83
87
7a
7a
7e
79
80
79
82
87
89
7d
77
7b
79
84
82
84
83
88
7d
77
7b
7e
7f
7e
81
7f
82
81
7d
79
83
80
7a
82
89
85
78
7d
80
80
7e
77
84
7f
86
7f
7b
7a
7d
83
7a
7e
80
8a
80
7f
7c
83
87
77
85
88
8b
80
7e
7d
7e
84
81
7c
7f
82
7d
7b
7f
7a
85
77
81
87
87
81
79
7a
7a
82
7e
81
80
86
79
7f
81
7d
7e
7b
81
86
80
81
7f
7b
80
85
80
82
7f
7f
7b
7d
78
79
85
79
80
84
89
81
79
7f
7c
86
81
83
80
81
80
78
84
7f
88
7f
80
80
84
7c
7c
82
80
7e
77
7b
81
81
7c
7b
79
7e
82
7d
7e
81
86
7c
7c
83
80
84
7d
84
83
7f
82
77
79
7c
87
7b
7b
81
81
7c
77
82
81
87
7a
82
86
84
83
75
81
7e
85
7e
81
86
84
7b
75
78
7c
7e
79
81
85
87
7b
7a
81
7b
80
7c
84
7e
84
82
7d
7b
7a
82
7a
7f
83
87
7d
7a
7c
7a
7d
80
81
7e
84
83
7b
7f
7d
80
81
82
85
81
82
77
7e
7e
86
7d
7d
7f
82
78
7e
79
7c
7d
7a
80
86
80
80
76
82
82
81
81
80
82
86
7f
7e
7a
81
7b
7c
7f
82
83
7a
7e
7e
81
80
7a
7d
7e
85
80
7b
7f
82
7c
82
7a
87
81
7f
7b
82
7f
83
7f
7e
85
80
7d
7e
7c
82
7d
77
81
85
87
82
78
7c
7d
7f
7d
7d
89
88
7f
7a
77
7f
81
7b
84
7f
81
78
7d
7c
7f
84
78
7a
85
87
7a
77
77
83
7e
7e
7b
7f
87
82
78
80
80
87
77
80
86
85
7f
79
7e
79
81
78
7a
83
85
7b
7b
84
80
7c
79
82
83
82
7c
7a
7e
7f
80
76
7d
80
82
7b
7e
7c
82
7f
7a
83
87
85
79
76
81
79
87
7d
80
7f
83
81
7a
7e
84
7f
76
7d
80
82
80
77
81
7a
87
7a
7b
82
7f
79
79
7f
7a
7c
7e
81
80
85
80
7d
80
83
87
7a
7f
80
88
7f
79
7b
81
80
7e
85
81
7f
82
7e
7a
7d
83
7e
81
85
86
7f
78
7e
81
85
7d
7f
7d
87
7c
7e
7e
81
86
79
7d
87
80
81
78
7f
7f
86
75
81
7e
84
83
78
7b
7f
84
7b
7d
81
81
7f
75
79
7d
7f
7e
7e
83
82
7d
77
81
80
7f
78
7c
86
80
7c
7c
83
83
7d
78
80
84
88
81
7a
7b
82
7e
79
85
7f
82
7a
7d
83
81
7c
7d
7e
83
82
7a
7d
81
7d
85
78
79
82
84
7d
79
77
81
7b
82
7e
86
81
7b
7c
81
80
7c
80
7d
7b
81
7c
7a
7f
7f
7b
7b
7b
82
89
81
7a
7c
7f
81
7a
7d
81
82
81
78
81
7f
7b
80
7d
81
83
82
7c
80
82
86
77
7f
81
86
7c
7e
77
84
7b
78
84
81
83
7d
7b
7c
85
85
7f
7f
86
83
7a
78
7a
7d
86
7e
81
88
80
7f
77
7c
7d
82
76
80
7f
86
80
75
7f
7c
86
7a
81
86
84
77
76
7a
7a
85
80
7f
84
82
7a
77
82
80
82
7b
82
88
83
81
7f
81
78
7f
7f
81
7e
87
7d
78
7a
7d
87
7a
7d
86
84
7a
7b
7d
80
85
7f
85
80
83
82
74
7e
82
82
7c
84
82
87
7a
76
7d
7b
88
78
7e
88
86
7d
79
7f
80
84
7b
86
84
7f
82
7a
7b
83
83
77
83
83
86
7a
79
78
80
88
7b
7d
80
89
7a
80
81
7c
80
75
82
83
87
83
7e
77
7a
80
7c
80
88
84
84
75
7e
79
85
79
7d
89
89
7d
7b
81
83
88
7c
7c
81
88
82
7c
80
7b
80
7c
84
87
81
79
79
7e
83
84
74
7e
85
88
82
7c
80
7a
7f
7a
7d
85
89
7e
7d
7d
7f
85
7b
83
7e
86
7f
7a
7c
81
86
80
80
86
8a
7a
7f
79
7d
81
7e
7d
82
83
84
7c
7c
85
80
79
79
84
7e
7d
78
81
80
7f
79
7d
7b
86
7f
7b
82
7e
7c
7c
81
84
82
7c
79
81
7d
7e
7e
7d
84
82
80
76
79
7f
82
7a
84
7f
7f
80
7b
79
85
7f
7e
7c
7f
81
7b
78
80
80
85
7c
81
83
84
78
76
7e
7e
80
7a
7e
86
80
81
7d
7a
81
7f
7a
85
83
88
7d
79
82
83
83
78
80
87
84
7f
7d
7b
82
80
80
7c
7f
83
7d
76
7b
7e
81
77
83
87
83
79
79
7b
80
81
77
85
7f
88
7c
79
7d
7e
84
76
7c
81
87
81
76
7c
7e
7e
7f
7f
81
87
77
7b
79
81
86
7b
7a
83
83
7b
7c
7a
7d
82
7a
7c
80
88
7d
79
7c
7f
83
7e
7c
88
83
7d
7d
7d
80
7c
78
7d
81
7f
7f
7e
7b
82
86
7e
81
83
87
7d
7b
80
7b
80
79
7f
84
88
7a
77
80
81
7e
79
83
80
85
7a
7a
7b
7e
83
7d
80
87
85
81
76
7c
7d
83
75
83
82
86
7b
75
80
79
87
79
81
88
85
7a
76
79
7b
81
77
7e
86
83
83
7c
80
82
83
76
81
81
81
80
77
7d
82
7e
76
83
83
8b
81
79
7d
7e
7f
7b
80
86
85
7b
7a
80
7f
7f
7b
79
82
82
82
7b
7b
82
83
79
81
81
87
84
79
7d
7b
85
7f
7d
7e
88
81
7e
79
81
7e
7e
82
85
84
7c
7a
7d
80
83
7c
7d
7f
80
7e
77
7e
82
80
81
79
7f
85
7e
76
7d
7b
79
7e
7d
83
80
7c
7c
80
7e
7e
7b
7e
84
85
80
77
80
7e
7e
80
7c
80
7e
79
79
82
83
86
7c
83
82
7f
81
7e
7e
7d
81
7d
7e
88
84
83
7b
7d
83
81
80
7d
81
82
7d
78
7e
7d
86
77
80
80
8b
7e
79
7d
7c
85
76
84
89
84
7a
7c
84
7a
80
7a
83
83
8c
7b
79
7f
82
87
7d
7b
89
88
7e
7f
7f
83
7d
7b
81
85
8a
7f
7e
7d
81
7e
75
7f
89
89
7d
77
79
82
82
77
7f
86
82
78
77
7c
7d
87
7e
81
85
82
7b
77
78
7b
82
7d
81
83
87
83
7a
7b
7a
81
76
7f
86
85
78
78
7a
7a
84
7b
82
84
8a
83
77
7d
7e
86
75
82
85
84
7d
7d
77
7c
85
74
7b
82
81
81
77
78
7a
7f
7c
82
84
89
80
7e
7b
79
81
76
81
7f
87
82
7e
7a
82
83
7a
84
82
88
7d
77
80
7f
80
7a
83
84
83
79
78
7c
7b
84
7e
7d
86
89
83
7c
85
7d
7e
79
85
81
84
7a
7d
84
7a
82
79
7b
82
83
80
7d
7b
7a
81
7e
81
83
88
7a
81
7c
82
7f
7b
7a
86
7f
7f
78
7e
7b
80
7e
7c
7f
84
81
77
7f
7e
86
82
7d
7c
7e
81
76
7f
80
80
7a
7c
85
80
7e
7a
79
7a
7e
7f
7a
7b
7f
7f
7b
80
80
7a
82
80
7c
7f
7c
7e
79
81
7c
7d
82
86
7f
80
7c
78
82
81
7c
7c
84
82
7e
79
7e
7c
7f
7f
80
87
82
7c
79
7a
82
80
78
7e
87
84
7e
76
7c
7f
7d
7b
7a
7f
84
83
7e
7c
7d
7c
7b
7b
83
86
80
7e
7d
7b
7d
75
7b
80
86
7f
77
7e
7a
85
79
84
80
82
80
7b
78
79
7f
7f
7d
86
86
82
76
7c
81
7f
7d
7b
87
81
80
7c
7c
80
81
7c
84
88
81
7c
7f
7d
85
81
7c
83
89
88
7b
7a
79
81
7f
7e
83
82
82
7a
7d
80
81
84
74
82
88
81
82
77
76
82
82
7c
7a
80
82
7e
79
79
7c
7d
7a
7f
82
84
7b
78
7e
81
7d
7d
82
8a
86
82
77
80
7d
7e
7b
7c
85
87
7e
79
79
7e
81
74
7a
80
82
7f
77
7a
7d
7d
78
7f
88
8a
79
79
7b
7e
7e
7d
7a
85
85
7e
75
7c
80
86
7a
83
86
81
83
79
81
7b
82
80
82
85
87
84
77
7d
80
7c
77
7a
85
83
80
76
80
7f
85
7a
80
81
7f
82
75
7c
7e
85
7b
83
7e
84
7e
7c
83
7e
7e
79
79
7e
87
82
78
81
81
84
7b
7f
7d
86
83
7f
7b
81
7d
7d
7e
86
85
7e
81
7c
81
82
84
79
7e
83
7d
7c
7a
7b
7c
7f
7c
79
7d
83
80
7e
81
7f
83
85
81
87
80
76
7f
82
7f
7d
81
85
7c
82
7b
82
82
83
7f
84
7d
84
7b
7d
81
7d
7e
77
7d
86
7e
7d
80
82
83
80
79
7e
7f
86
7f
75
7f
84
7c
77
7b
88
82
79
7d
7a
7d
81
75
7c
7e
88
7d
77
7f
7c
84
7f
7e
86
86
81
75
82
7e
81
7e
81
89
82
80
7a
7c
7f
83
77
7d
85
83
7b
7d
7f
80
82
7a
7b
88
84
7e
74
7f
83
84
7b
80
81
87
78
7c
7e
7e
81
79
82
84
86
80
79
81
7b
82
75
83
89
80
79
7a
7b
81
7e
76
7b
87
83
82
75
7a
7e
83
7f
7c
83
87
82
7c
79
82
80
75
82
83
87
7b
7a
7b
7d
84
76
83
88
8a
78
7d
7d
85
82
76
80
85
85
7c
7e
7b
7c
82
7c
81
84
88
82
77
7a
82
84
79
7f
88
84
7b
7c
83
82
7f
7e
7c
86
82
7f
77
7e
83
81
7e
82
82
7f
7a
7c
7c
82
7c
76
83
83
80
81
7d
83
81
85
78
7b
81
81
83
76
82
82
84
7e
82
80
84
7b
7a
7c
79
7c
7c
81
84
82
79
7f
83
80
7f
81
7e
84
7e
7a
81
7b
81
81
7c
79
80
7f
7e
80
7f
7f
7f
7f
7e
80
85
7e
7c
7c
7d
81
84
81
7d
87
82
7a
7d
7c
80
7d
7e
81
7e
84
7c
7b
7f
7d
84
82
7e
7d
82
7f
84
84
82
7e
7c
83
84
83
80
79
7b
7e
7b
7c
83
7e
81
76
80
7b
7b
7d
81
7f
85
83
7c
7d
7d
82
79
82
85
81
7c
7e
7f
80
81
7c
7e
83
85
79
74
7f
84
7b
7b
83
7f
84
7f
7d
83
7f
82
76
7f
88
80
7b
7b
7c
7e
7d
7e
80
7f
86
81
80
82
7e
81
7d
83
87
80
7a
7a
81
7a
86
77
7d
80
81
80
79
81
82
87
7d
81
86
8b
7b
7f
78
7d
81
7a
80
87
84
82
79
7c
7c
86
7c
7f
83
85
79
78
7e
83
82
7d
7d
88
87
80
7b
78
7d
83
78
82
89
83
7f
7d
7c
85
7f
78
84
7f
82
81
7b
7e
81
83
75
7c
80
8b
81
7b
7a
7d
7b
79
81
83
7f
83
7d
7e
85
7f
76
7a
7f
85
83
7b
7a
7c
85
7a
81
82
83
81
7c
7d
7a
7e
80
83
83
83
7d
7e
7d
81
84
7b
7e
80
82
7c
79
84
81
82
7a
81
7e
85
7d
7d
82
7f
81
81
7a
7e
85
7c
7a
7d
84
82
7f
81
81
82
7d
78
83
80
85
7c
83
83
7e
7e
7b
7c
7e
7c
7c
7f
84
7e
81
7c
81
7d
86
7f
82
85
7c
80
7d
78
7a
80
80
79
84
83
82
79
7d
82
82
83
7d
79
82
80
7d
7f
7e
7d
80
82
7b
82
83
7c
80
82
82
7b
7d
84
7e
7e
79
80
7d
81
82
82
80
80
84
82
81
7d
83
79
7c
84
84
7e
79
81
82
7f
7d
7a
80
82
81
7f
84
7b
80
7b
7e
82
84
83
79
7a
7f
83
81
80
83
80
81
76
7e
81
82
79
80
7f
81
7a
7e
7e
7c
7e
7d
7d
7f
82
7d
7a
81
7f
7f
79
7c
82
86
7e
78
81
82
83
7a
7f
82
87
7b
80
7c
82
81
7a
7d
81
8a
7f
78
7e
85
7d
75
7f
83
84
7a
7a
79
7f
84
77
83
87
87
7c
7f
80
82
7c
7f
82
82
85
7f
7a
7e
7d
82
7c
7f
80
89
81
77
79
82
80
74
85
86
84
7a
77
80
86
7d
7a
7f
85
87
7b
75
7d
86
7f
7e
7d
87
88
7d
7d
7a
7f
80
74
80
84
84
7d
74
80
81
80
7b
80
82
87
7e
7a
7d
82
82
78
7a
86
85
78
7e
7f
81
7e
7c
84
88
85
7d
7a
7c
80
7d
7b
83
81
86
7a
78
7b
7a
7f
78
81
87
84
7d
79
7a
7a
85
80
7d
80
80
7d
81
80
85
7f
80
7c
7f
85
83
7f
79
7c
83
77
7e
82
85
84
7d
81
82
7c
7c
7c
7e
84
7b
81
7e
7b
7d
7c
80
7f
85
80
79
7a
7a
7e
83
7e
7d
7d
7e
81
7f
7d
7f
7e
7a
82
7f
7e
78
7d
84
79
7d
85
79
82
82
83
7e
7d
85
7c
7d
7e
83
83
7b
7d
7d
81
7d
7f
7c
83
7d
7e
7b
7c
80
7e
84
7d
7f
7a
7f
7a
7a
7c
79
83
7e
84
80
81
7e
7f
7c
7b
7f
7d
87
7a
77
7a
7b
84
7b
7b
7f
86
83
80
82
7f
80
79
7c
85
84
80
7a
7f
7b
82
7a
82
87
81
7a
81
7b
81
7e
7f
81
7f
82
7a
7e
7b
81
7d
7e
80
7e
82
7a
7e
80
85
84
7a
7b
7f
82
7e
7b
78
81
82
7a
82
7f
88
7d
7e
81
81
80
79
7c
86
88
80
7a
7c
86
84
7c
7c
85
85
81
7b
81
7d
7d
78
84
7f
82
79
7d
7e
85
80
7f
82
83
82
78
76
78
7c
86
7b
7a
7f
8a
78
78
7e
7f
84
76
7c
87
87
7d
77
7b
84
7f
75
7a
81
88
83
7e
7a
7e
86
7d
7c
80
80
7f
7a
7e
83
80
7a
7f
89
80
7e
7c
7a
83
83
7b
82
80
81
79
7f
7e
80
7b
78
83
84
80
7c
7d
80
7e
7f
78
80
7f
80
7c
7e
84
80
82
7c
7c
84
86
7a
77
7c
83
7c
78
83
7e
84
7e
7a
78
7e
84
7b
81
85
81
84
81
80
81
80
7a
7b
81
81
84
7f
7a
81
7b
7e
82
7b
82
83
83
83
80
82
80
80
85
80
80
7b
82
80
7c
7f
82
7d
80
83
7d
81
7c
80
81
80
7f
7e
82
7b
80
7b
80
7b
7a
7a
84
83
82
7d
7c
82
80
7b
7e
7f
7e
79
81
83
7f
80
80
7f
82
82
82
7b
7d
7d
7f
7f
7e
82
7d
7f
7d
7c
7e
7b
7c
7c
7e
83
79
7d
79
80
7a
80
83
85
7d
76
82
7e
7c
7f
85
80
7d
7b
7c
80
7d
7f
7b
83
82
87
7e
7e
7a
7e
7f
78
80
7f
84
7f
79
7b
7c
84
7a
81
85
88
7c
7b
7f
82
7a
77
83
84
8a
7c
7e
7e
83
82
7d
7c
80
85
81
7a
82
80
83
78
82
83
89
7a
7d
7d
81
81
7d
7c
80
81
7e
7d
82
86
7d
7a
7f
85
89
78
7a
79
7e
83
78
83
86
82
7b
7d
7a
7e
7b
76
84
83
85
7d
78
7d
7f
7e
77
7b
7f
88
76
80
7a
84
82
7b
81
83
81
7d
82
7a
81
7e
76
84
7f
86
7b
7c
7c
81
84
78
7f
7e
84
82
7a
81
7b
7d
7c
80
87
86
7d
79
82
7d
7c
7d
84
84
84
7a
7d
7e
80
7d
81
82
7d
7f
84
7b
7d
82
84
7a
81
85
82
80
7c
82
7e
7a
79
7e
80
81
7e
7f
7f
85
7c
7b
7d
82
7d
7b
7d
83
7b
7f
7d
82
7f
80
80
80
7a
7e
82
7e
7d
83
84
7e
7c
84
7a
87
7e
7b
7d
7d
83
7a
81
7b
82
7f
82
7e
7e
7e
7c
83
80
7e
7f
7d
7a
7f
7e
7d
78
7e
86
81
7f
7a
82
84
85
7d
7d
7e
7f
7e
83
7a
7e
81
82
7b
7f
7b
7d
7f
7f
82
82
81
81
7b
78
83
7b
7d
7b
83
81
7b
80
81
7c
7a
7d
83
7f
80
7c
7e
79
7b
82
7c
7c
7c
7f
85
7d
81
85
82
84
7d
7a
7f
7d
83
77
7b
7f
7d
80
79
7b
80
86
7c
7e
85
80
79
82
7d
7d
7c
7e
7e
83
7f
7e
7f
79
84
82
81
7e
85
81
78
7c
82
80
7b
7c
7f
81
83
81
7e
80
80
7e
7c
81
87
7f
76
7e
7c
79
7c
78
80
83
87
7d
79
7f
7f
7d
7e
85
7f
85
80
7b
7a
7e
80
80
7c
7c
86
7b
78
7c
7d
80
81
80
87
84
7d
81
82
84
82
79
7d
82
81
80
78
7e
7c
81
7e
84
85
84
7e
78
83
7a
84
7b
83
82
82
81
7d
7b
7c
7c
78
7b
82
84
7a
7f
7e
82
82
80
83
7e
82
84
7a
7b
7f
80
7d
83
80
86
81
7f
7e
7f
7e
7f
7b
85
86
80
7a
84
81
85
80
81
82
7d
7e
80
7e
7c
7d
7d
81
84
81
7f
79
7e
7d
83
84
80
7c
82
7b
7e
7b
7e
7c
84
7a
7e
7f
7d
82
82
7e
82
7f
80
82
7e
7b
82
84
7f
81
7d
80
79
7c
85
82
82
82
7a
7d
80
7a
7d
81
7c
7a
7e
7b
85
7c
81
7b
84
7c
80
81
7d
7f
7d
7c
7a
7b
7c
7b
85
81
84
83
83
7a
7d
7b
81
7a
82
7a
7c
7a
81
86
83
7d
7c
82
7b
83
7a
7f
7d
7b
7f
7d
82
7b
7c
84
83
7b
7e
7f
7e
79
7b
7b
7f
80
81
7d
7d
7d
7c
82
83
83
83
7c
79
7f
85
81
7c
85
82
82
7d
7d
7a
82
81
7d
7c
84
83
7d
7f
7f
83
80
7e
7e
85
85
7d
79
77
7e
7b
77
83
7f
84
7d
80
7f
85
85
77
85
84
87
82
80
77
82
7d
7f
82
82
7f
7e
7c
82
80
7f
7d
7b
7e
89
7a
7f
78
84
81
7f
80
81
84
7c
7c
7b
81
7e
7e
85
82
87
7b
7c
7b
81
81
81
83
85
82
7e
79
81
84
7a
79
80
83
81
7c
78
7b
83
83
7b
80
86
81
7e
7e
7b
81
82
77
84
84
87
7a
7d
80
80
7b
80
84
83
85
79
7f
7e
7d
7c
78
85
7c
7e
80
79
79
84
7b
78
7f
7d
83
82
7d
80
7f
82
79
7e
80
80
7b
82
7e
7e
83
7b
7d
7d
81
82
80
7b
7e
7e
7b
7b
7c
83
7f
7c
7d
81
7f
82
82
83
82
81
7b
7e
7a
84
81
7e
81
81
83
7c
7d
7f
83
81
84
7a
80
81
80
7f
79
83
87
7f
7f
7d
7e
80
79
84
7a
83
7b
7e
78
7e
80
81
88
7f
82
7b
7f
76
7e
81
79
82
7d
80
82
77
81
7a
81
79
7c
81
7e
83
7a
80
7e
7d
7b
81
80
7b
7c
83
7b
7e
82
81
7e
81
85
83
7e
83
81
7d
7a
7e
7f
84
82
7a
80
80
81
7f
84
7d
80
7e
81
7c
82
82
83
7e
83
79
7a
7a
80
7f
78
80
82
83
7f
7d
82
7b
85
80
7f
7e
7c
81
7e
7d
85
7b
7b
7f
80
81
79
7a
85
7e
7f
7b
7b
83
80
7f
84
80
83
7c
80
7c
80
82
79
7f
7f
82
7c
7f
7f
83
7c
79
7e
7c
87
80
83
7f
85
80
7a
7e
7f
85
7c
7e
7d
7d
85
78
7e
86
84
7f
7a
79
84
81
80
7d
84
7d
7a
7c
82
82
83
77
7c
84
7f
7d
79
78
7d
7f
7d
80
7e
86
77
7a
80
7c
7e
80
7f
7d
83
81
7f
82
83
80
81
82
7b
7e
7b
7c
83
80
7a
7c
85
7f
83
7a
7b
7c
84
83
7e
7e
82
84
7a
7c
78
82
7a
7d
80
83
83
84
7d
84
82
80
7d
7b
84
7d
7c
7f
7d
82
81
7c
79
7b
82
83
7f
81
7e
7f
7f
7e
7c
83
81
7e
7a
82
84
84
80
7c
7f
7a
81
7f
7d
87
84
84
7a
80
7c
81
7e
83
7d
7f
7c
7d
81
7b
84
7f
84
7d
88
7c
80
78
7b
84
7d
7c
7c
83
7e
74
7c
86
84
81
7d
83
88
82
75
77
81
7d
7a
85
7e
85
7f
7f
79
7b
83
7a
7c
84
82
81
80
7b
80
7e
7c
80
82
82
7e
7c
82
82
84
7e
81
7c
7d
7b
7a
7c
7c
81
7d
85
82
7c
7b
80
7b
7f
7e
7f
7d
81
7d
80
80
7b
83
83
7c
7e
7e
7d
7c
83
7b
7a
79
7a
7c
7a
7a
83
7e
7b
7b
7c
80
7c
81
81
83
81
86
81
80
81
83
82
7e
7d
85
80
80
7b
81
83
84
7c
83
7e
83
80
7a
79
7d
80
83
7b
7e
82
7a
80
79
82
82
7f
84
7f
7e
80
7b
83
7c
79
7a
7d
81
83
7d
83
7c
81
7f
7c
82
81
80
81
79
82
80
7a
7c
80
81
7d
7c
79
80
85
81
79
7d
80
82
78
7f
7c
7c
7f
81
7a
82
85
7e
7d
78
84
80
80
80
82
86
7c
7b
7f
85
80
7c
81
84
7d
81
7c
83
83
7f
7e
7c
80
7e
7a
80
7e
7f
81
79
84
7f
83
81
7c
81
7e
7b
7a
84
84
82
7e
80
80
80
7c
7b
7d
82
85
7c
7d
83
83
82
81
81
7b
82
7b
7e
7b
7b
82
85
7a
7d
79
7c
7c
84
80
80
7e
7e
79
80
7f
7c
82
84
7e
88
7e
81
79
7b
7e
7c
80
86
86
80
81
7c
82
85
7c
7e
7d
89
7c
78
78
84
81
82
7d
7e
86
82
75
80
84
7d
7c
84
7e
89
7b
79
7c
84
80
7c
7d
7d
88
7c
7f
78
84
86
7b
7e
7e
87
7b
78
80
7d
7e
7d
7e
83
7e
7b
78
81
85
84
7b
7e
86
86
80
7e
80
7a
7d
79
7b
85
84
7f
7b
80
7f
7d
7d
7f
7d
7c
80
82
82
7d
82
81
85
83
82
82
83
84
83
84
7c
81
7f
7d
7f
80
80
7a
7e
7c
84
7e
7d
83
81
7b
81
7c
7f
7d
80
7d
7a
81
7d
7f
7b
7b
80
82
7c
82
84
7e
80
7a
7a
86
7e
81
7f
84
83
7a
81
80
7f
84
7b
82
82
85
7b
81
7a
7c
7c
7a
7a
80
7f
82
81
7f
82
80
7a
84
7f
81
82
7d
7f
83
84
7f
7c
83
82
83
7e
84
7f
81
7f
7f
81
7e
7f
83
80
7e
81
80
7b
83
80
82
7a
7b
81
79
7e
80
82
86
82
7e
78
85
82
7e
7d
82
87
83
7e
82
85
7f
7c
7e
7f
7e
7d
82
7e
7c
7f
81
83
80
83
81
7d
82
87
7f
7b
85
83
81
83
7e
7f
80
7d
84
7a
7c
7f
81
84
7a
81
82
81
7f
82
81
7d
80
80
80
81
7f
82
7d
7e
7a
7b
80
7b
82
80
79
7d
79
82
81
83
7b
83
81
7b
76
83
7f
84
7d
84
7b
83
81
7d
7b
7d
84
80
85
7f
81
83
7c
78
7b
7c
7b
85
84
80
7d
74
7b
7d
7e
80
7d
80
83
7d
73
76
82
7b
78
82
83
80
85
7b
7a
7e
81
7c
83
82
86
7d
7d
7f
83
83
7e
89
7c
7e
7f
79
80
82
82
7f
7f
7c
88
81
79
77
82
84
78
7f
80
86
7d
7a
7a
82
7c
81
85
7b
7e
7a
7f
78
81
84
7b
80
7b
86
7e
78
7e
7d
80
7b
86
7c
7f
7e
7a
80
82
7c
7b
7e
7f
83
7c
83
83
83
82
7e
86
7b
7e
7f
81
7c
7f
7f
83
82
7f
84
82
7f
84
7b
7b
80
86
81
82
80
81
7d
84
79
7e
81
7d
7f
7c
7b
7c
7a
7e
7d
88
7c
85
7a
7c
86
7c
81
79
81
80
85
7c
7a
85
7c
7b
77
84
80
83
80
80
84
7f
7f
7b
87
79
80
82
82
86
7d
80
79
82
7a
7d
7e
7e
81
82
84
83
85
7c
7e
81
80
7d
7c
7d
82
83
7a
85
85
7e
80
83
83
7e
7e
7f
7e
84
7f
7c
7d
85
80
80
7e
86
84
7d
7c
7a
7d
7d
84
80
82
7b
79
83
7b
84
7b
80
84
7e
7c
77
7b
83
7c
79
84
7f
83
83
7c
82
7c
7c
80
81
7d
7f
82
76
7f
82
82
83
7f
80
84
7e
7a
7b
80
83
80
84
7b
88
7e
7a
7c
83
7e
7f
7c
7d
85
84
7a
7e
86
81
7b
7e
7a
84
7d
78
77
80
7f
80
80
83
86
80
7a
78
86
7c
7a
86
80
